const unsigned char environment_classify_model[] = {
  0x1c, 0x00, 0x00, 0x00, 0x54, 0x46, 0x4c, 0x33, 0x14, 0x00, 0x20, 0x00,
  0x1c, 0x00, 0x18, 0x00, 0x14, 0x00, 0x10, 0x00, 0x0c, 0x00, 0x00, 0x00,
  0x08, 0x00, 0x04, 0x00, 0x14, 0x00, 0x00, 0x00, 0x1c, 0x00, 0x00, 0x00,
  0x98, 0x00, 0x00, 0x00, 0xf0, 0x00, 0x00, 0x00, 0x5c, 0x05, 0x00, 0x00,
  0x6c, 0x05, 0x00, 0x00, 0x1c, 0x0b, 0x00, 0x00, 0x03, 0x00, 0x00, 0x00,
  0x01, 0x00, 0x00, 0x00, 0x10, 0x00, 0x00, 0x00, 0x00, 0x00, 0x0a, 0x00,
  0x10, 0x00, 0x0c, 0x00, 0x08, 0x00, 0x04, 0x00, 0x0a, 0x00, 0x00, 0x00,
  0x0c, 0x00, 0x00, 0x00, 0x1c, 0x00, 0x00, 0x00, 0x3c, 0x00, 0x00, 0x00,
  0x0f, 0x00, 0x00, 0x00, 0x73, 0x65, 0x72, 0x76, 0x69, 0x6e, 0x67, 0x5f,
  0x64, 0x65, 0x66, 0x61, 0x75, 0x6c, 0x74, 0x00, 0x01, 0x00, 0x00, 0x00,
  0x04, 0x00, 0x00, 0x00, 0x90, 0xff, 0xff, 0xff, 0x0a, 0x00, 0x00, 0x00,
  0x04, 0x00, 0x00, 0x00, 0x08, 0x00, 0x00, 0x00, 0x6f, 0x75, 0x74, 0x70,
  0x75, 0x74, 0x5f, 0x30, 0x00, 0x00, 0x00, 0x00, 0x01, 0x00, 0x00, 0x00,
  0x04, 0x00, 0x00, 0x00, 0x8a, 0xfa, 0xff, 0xff, 0x04, 0x00, 0x00, 0x00,
  0x0c, 0x00, 0x00, 0x00, 0x6b, 0x65, 0x72, 0x61, 0x73, 0x5f, 0x74, 0x65,
  0x6e, 0x73, 0x6f, 0x72, 0x00, 0x00, 0x00, 0x00, 0x02, 0x00, 0x00, 0x00,
  0x34, 0x00, 0x00, 0x00, 0x04, 0x00, 0x00, 0x00, 0xdc, 0xff, 0xff, 0xff,
  0x0d, 0x00, 0x00, 0x00, 0x04, 0x00, 0x00, 0x00, 0x13, 0x00, 0x00, 0x00,
  0x43, 0x4f, 0x4e, 0x56, 0x45, 0x52, 0x53, 0x49, 0x4f, 0x4e, 0x5f, 0x4d,
  0x45, 0x54, 0x41, 0x44, 0x41, 0x54, 0x41, 0x00, 0x08, 0x00, 0x0c, 0x00,
  0x08, 0x00, 0x04, 0x00, 0x08, 0x00, 0x00, 0x00, 0x0c, 0x00, 0x00, 0x00,
  0x04, 0x00, 0x00, 0x00, 0x13, 0x00, 0x00, 0x00, 0x6d, 0x69, 0x6e, 0x5f,
  0x72, 0x75, 0x6e, 0x74, 0x69, 0x6d, 0x65, 0x5f, 0x76, 0x65, 0x72, 0x73,
  0x69, 0x6f, 0x6e, 0x00, 0x0e, 0x00, 0x00, 0x00, 0x68, 0x04, 0x00, 0x00,
  0x60, 0x04, 0x00, 0x00, 0x30, 0x04, 0x00, 0x00, 0x14, 0x04, 0x00, 0x00,
  0xa4, 0x03, 0x00, 0x00, 0x94, 0x01, 0x00, 0x00, 0x04, 0x01, 0x00, 0x00,
  0xb4, 0x00, 0x00, 0x00, 0xac, 0x00, 0x00, 0x00, 0xa4, 0x00, 0x00, 0x00,
  0x9c, 0x00, 0x00, 0x00, 0x94, 0x00, 0x00, 0x00, 0x74, 0x00, 0x00, 0x00,
  0x04, 0x00, 0x00, 0x00, 0x3e, 0xfb, 0xff, 0xff, 0x04, 0x00, 0x00, 0x00,
  0x60, 0x00, 0x00, 0x00, 0x0c, 0x00, 0x00, 0x00, 0x08, 0x00, 0x0e, 0x00,
  0x08, 0x00, 0x04, 0x00, 0x08, 0x00, 0x00, 0x00, 0x10, 0x00, 0x00, 0x00,
  0x28, 0x00, 0x00, 0x00, 0x00, 0x00, 0x06, 0x00, 0x08, 0x00, 0x04, 0x00,
  0x06, 0x00, 0x00, 0x00, 0x04, 0x00, 0x00, 0x00, 0x01, 0x00, 0x00, 0x00,
  0xea, 0x03, 0x00, 0x00, 0x0c, 0x00, 0x18, 0x00, 0x14, 0x00, 0x10, 0x00,
  0x0c, 0x00, 0x04, 0x00, 0x0c, 0x00, 0x00, 0x00, 0x70, 0x4f, 0x6e, 0x96,
  0x6b, 0x36, 0x6d, 0xdf, 0x02, 0x00, 0x00, 0x00, 0x02, 0x00, 0x00, 0x00,
  0x04, 0x00, 0x00, 0x00, 0x06, 0x00, 0x00, 0x00, 0x32, 0x2e, 0x32, 0x30,
  0x2e, 0x30, 0x00, 0x00, 0xaa, 0xfb, 0xff, 0xff, 0x04, 0x00, 0x00, 0x00,
  0x10, 0x00, 0x00, 0x00, 0x31, 0x2e, 0x35, 0x2e, 0x30, 0x00, 0x00, 0x00,
  0x00, 0x00, 0x00, 0x00, 0x00, 0x00, 0x00, 0x00, 0xc4, 0xf6, 0xff, 0xff,
  0xc8, 0xf6, 0xff, 0xff, 0xcc, 0xf6, 0xff, 0xff, 0xd0, 0xf6, 0xff, 0xff,
  0xd6, 0xfb, 0xff, 0xff, 0x04, 0x00, 0x00, 0x00, 0x40, 0x00, 0x00, 0x00,
  0x71, 0xf0, 0xb3, 0xbd, 0x8b, 0x94, 0x67, 0xbd, 0xcb, 0x17, 0xab, 0xbe,
  0xdd, 0x92, 0x80, 0xbe, 0x39, 0x55, 0x71, 0xbe, 0x94, 0x0e, 0xbd, 0xbc,
  0xe8, 0xf3, 0x82, 0xbe, 0x35, 0xec, 0x09, 0xbe, 0xa4, 0x05, 0xec, 0xbd,
  0xa1, 0x9f, 0x41, 0x3f, 0x66, 0xdc, 0x29, 0x3d, 0x3b, 0xc5, 0x63, 0xbe,
  0xf5, 0x19, 0x72, 0xbe, 0x19, 0x0a, 0x0b, 0xbe, 0xa0, 0x48, 0x74, 0x3d,
  0xac, 0x2b, 0x45, 0xbe, 0x22, 0xfc, 0xff, 0xff, 0x04, 0x00, 0x00, 0x00,
  0x80, 0x00, 0x00, 0x00, 0x6a, 0x7f, 0x32, 0xbf, 0x8d, 0xeb, 0x28, 0xbf,
  0x73, 0x6d, 0xf5, 0x3d, 0xaa, 0x06, 0xad, 0x3e, 0x99, 0x9b, 0xcf, 0x3e,
  0x86, 0x0f, 0x73, 0xbe, 0xe1, 0xc6, 0xa5, 0xbe, 0x9b, 0xfe, 0x8b, 0xbe,
  0x31, 0xd2, 0x4e, 0xbe, 0x7c, 0x80, 0x4c, 0x3d, 0xbb, 0xbc, 0x26, 0x3f,
  0x7d, 0x7d, 0x59, 0xbe, 0x67, 0x99, 0x9f, 0x3e, 0x8b, 0x4f, 0x03, 0xbd,
  0x4d, 0xbc, 0x35, 0xbf, 0x26, 0x4f, 0x54, 0x3f, 0x0d, 0x4f, 0x1e, 0xbf,
  0x49, 0xae, 0x1a, 0xbe, 0x07, 0x08, 0x2a, 0xbf, 0x13, 0x3a, 0xce, 0x3e,
  0xa1, 0x67, 0x6c, 0x3f, 0xee, 0x09, 0x83, 0xbf, 0xf6, 0x55, 0x61, 0x3f,
  0x77, 0xc1, 0x29, 0x3f, 0xbf, 0x02, 0x52, 0x3e, 0xae, 0x55, 0x39, 0x3f,
  0x68, 0xc6, 0x67, 0x3f, 0x5b, 0x63, 0x0f, 0xbf, 0x73, 0x1a, 0x47, 0x3f,
  0x68, 0x80, 0xc2, 0x3e, 0x19, 0xf7, 0x20, 0xbf, 0xe1, 0xed, 0x30, 0x3f,
  0xae, 0xfc, 0xff, 0xff, 0x04, 0x00, 0x00, 0x00, 0x00, 0x02, 0x00, 0x00,
  0xd8, 0xe2, 0xa2, 0x3c, 0x2c, 0xad, 0xc9, 0xbe, 0xe8, 0x1d, 0x8b, 0xbe,
  0x4c, 0x93, 0x7f, 0xbd, 0x20, 0x4c, 0xfd, 0xbc, 0x58, 0xe0, 0xa2, 0x3e,
  0x7a, 0x40, 0x78, 0xbf, 0x74, 0x77, 0xf2, 0x3c, 0xce, 0x77, 0x80, 0xbd,
  0x06, 0xc4, 0xcd, 0x3e, 0xa7, 0xb1, 0x24, 0xbe, 0xcc, 0x90, 0x60, 0xbe,
  0x38, 0x60, 0xc4, 0xbe, 0xd8, 0xe3, 0xa2, 0x3c, 0x1a, 0xad, 0x30, 0x3f,
  0x81, 0x5b, 0xef, 0xbe, 0xdb, 0x21, 0x32, 0xbe, 0x4a, 0x8c, 0x7b, 0x3e,
  0x34, 0xb7, 0x0c, 0xbe, 0x99, 0x26, 0x59, 0xbf, 0xe8, 0x25, 0x4d, 0x3e,
  0x1a, 0xbb, 0x18, 0xbf, 0xa4, 0xa5, 0xe8, 0x3d, 0xe8, 0x3c, 0x6e, 0xbf,
  0x66, 0xb6, 0x36, 0xbf, 0x33, 0x55, 0xa2, 0x3f, 0xfd, 0x76, 0x30, 0xbf,
  0x48, 0x8e, 0xc7, 0xbe, 0x6a, 0x7f, 0x67, 0xbf, 0x91, 0x1b, 0x20, 0xbf,
  0xc6, 0xf6, 0x13, 0x3e, 0x7f, 0x03, 0x1a, 0xbf, 0xf6, 0x85, 0xd9, 0xbe,
  0x90, 0x36, 0x91, 0xbe, 0x1d, 0xfc, 0x78, 0xbe, 0xa8, 0x42, 0xa2, 0x3d,
  0x1f, 0x4c, 0x88, 0x3e, 0x34, 0xd3, 0xfb, 0xbe, 0x10, 0x2c, 0xcc, 0x3e,
  0xdc, 0x0e, 0x85, 0xbe, 0x44, 0xec, 0xef, 0xbd, 0xc0, 0x4a, 0xfc, 0xbd,
  0xa2, 0xb2, 0xef, 0x3e, 0xdc, 0x0c, 0xaf, 0xbe, 0x8c, 0x17, 0xcf, 0xbe,
  0xde, 0xbb, 0xad, 0xbe, 0x31, 0x62, 0x01, 0xbf, 0x38, 0x69, 0x56, 0xbe,
  0x44, 0xfe, 0xcb, 0x3e, 0x11, 0x0a, 0xd7, 0xbe, 0x96, 0x74, 0xd0, 0xbe,
  0x64, 0x96, 0xcd, 0xbe, 0x2b, 0xde, 0x5a, 0x3d, 0x80, 0xd8, 0x50, 0x3f,
  0x4c, 0xb2, 0xc5, 0xbe, 0xd5, 0x9f, 0xea, 0x3e, 0xb7, 0xec, 0x65, 0x3e,
  0x4d, 0x6c, 0x88, 0xbe, 0xcf, 0xcd, 0x00, 0x3f, 0x2a, 0x8b, 0x10, 0x3f,
  0x8f, 0x78, 0xc2, 0x3e, 0x17, 0x34, 0x5b, 0x3d, 0xf3, 0x47, 0x90, 0xbe,
  0x70, 0x8c, 0x54, 0xbc, 0x2a, 0x96, 0x97, 0x3e, 0x48, 0xa5, 0x61, 0x3e,
  0x71, 0x20, 0x53, 0xbe, 0x94, 0xd8, 0xd1, 0xbe, 0x5a, 0xc5, 0x1a, 0xbf,
  0x69, 0x81, 0x98, 0x3e, 0xa7, 0xbe, 0x87, 0x3e, 0x8c, 0x41, 0xfe, 0x3e,
  0x35, 0x13, 0x97, 0x3e, 0x2a, 0xe4, 0xc7, 0x3e, 0x4c, 0xb6, 0x1f, 0xbe,
  0x8e, 0x7b, 0x14, 0x3e, 0x79, 0x9d, 0x55, 0xbe, 0x3d, 0xdc, 0x9f, 0x3e,
  0x8e, 0xc9, 0x2d, 0xbf, 0x73, 0x74, 0x9d, 0x3e, 0xfd, 0x4c, 0x73, 0xbd,
  0x94, 0x12, 0x93, 0x3e, 0xe7, 0x8c, 0x6a, 0x3f, 0xfe, 0x78, 0x4e, 0x3f,
  0xce, 0xae, 0x92, 0x3e, 0xc0, 0xd4, 0xeb, 0xbd, 0xdc, 0xf9, 0x98, 0x3f,
  0xd5, 0xcc, 0xf8, 0x3e, 0xc5, 0x2d, 0x26, 0x3f, 0xd5, 0xb2, 0x53, 0x3e,
  0xc4, 0xc5, 0xd9, 0x3e, 0xdd, 0x6a, 0x06, 0xbe, 0x33, 0xa2, 0x57, 0x3e,
  0x08, 0x3c, 0x03, 0x3f, 0x9f, 0x3e, 0x86, 0x3e, 0x6c, 0xa2, 0xbf, 0xbe,
  0x53, 0x68, 0x0f, 0x3f, 0x43, 0x23, 0x14, 0xbe, 0xe2, 0x2a, 0x1f, 0x3e,
  0x28, 0x04, 0x04, 0x3f, 0x0e, 0x3d, 0x27, 0xbe, 0x3b, 0x1d, 0xba, 0xbd,
  0x69, 0xdf, 0x25, 0x3e, 0xe8, 0xab, 0x09, 0x3f, 0x5b, 0xa8, 0x78, 0x3e,
  0x16, 0x38, 0x21, 0xbe, 0xee, 0xcf, 0x97, 0xbc, 0x79, 0xcd, 0x39, 0x3f,
  0xb7, 0xf6, 0x06, 0x3f, 0x04, 0x94, 0x4d, 0x3d, 0x50, 0xfc, 0x37, 0xbb,
  0x83, 0x06, 0xd7, 0x3e, 0xf0, 0xa5, 0x57, 0x3f, 0x5d, 0xf9, 0x93, 0x3e,
  0x56, 0x5f, 0x94, 0x3e, 0x68, 0x8a, 0x95, 0x3e, 0x39, 0xe0, 0x8b, 0xbb,
  0x3f, 0x37, 0x6f, 0x3f, 0x04, 0xd9, 0x4d, 0x3e, 0x9b, 0xa1, 0x65, 0x3f,
  0xee, 0x28, 0x5d, 0x3e, 0x7a, 0x1e, 0xb4, 0x3e, 0x7e, 0x3a, 0x45, 0x3f,
  0xa5, 0x99, 0x39, 0x3f, 0xdd, 0x3e, 0x4c, 0x3f, 0x71, 0x3f, 0x82, 0x3f,
  0xa6, 0x20, 0x8d, 0x3f, 0x71, 0x9c, 0x17, 0x3f, 0xba, 0xfe, 0xff, 0xff,
  0x04, 0x00, 0x00, 0x00, 0x60, 0x00, 0x00, 0x00, 0x21, 0xeb, 0xa9, 0x3e,
  0xeb, 0x3d, 0x58, 0x3f, 0x3f, 0xfc, 0xe8, 0xbe, 0x92, 0xec, 0x72, 0xbf,
  0x95, 0x81, 0x21, 0xbf, 0xdf, 0xc9, 0xed, 0xbe, 0x01, 0x1b, 0x25, 0xbe,
  0x62, 0xa3, 0x7c, 0xbe, 0xc0, 0x1d, 0xbb, 0x3e, 0xbd, 0x4b, 0x13, 0xbf,
  0x0f, 0xf0, 0x18, 0xbf, 0x3f, 0x25, 0x5b, 0x3f, 0xd8, 0x69, 0x24, 0x3f,
  0x37, 0xd9, 0x1e, 0xbf, 0x2c, 0x45, 0x40, 0xbf, 0xb8, 0x24, 0x40, 0x3f,
  0xda, 0xb3, 0x4c, 0xbf, 0x46, 0x35, 0x97, 0xbf, 0x61, 0xb5, 0x20, 0xbe,
  0xfd, 0xa1, 0xb3, 0xbe, 0x73, 0x96, 0xcb, 0xbe, 0x1f, 0x36, 0x07, 0x3f,
  0xf0, 0x61, 0x80, 0x3f, 0xed, 0x68, 0x9c, 0x3f, 0x26, 0xff, 0xff, 0xff,
  0x04, 0x00, 0x00, 0x00, 0x0c, 0x00, 0x00, 0x00, 0x5c, 0x21, 0xff, 0x3e,
  0x35, 0x2c, 0x1f, 0x3e, 0xb7, 0x95, 0x10, 0xbf, 0x3e, 0xff, 0xff, 0xff,
  0x04, 0x00, 0x00, 0x00, 0x20, 0x00, 0x00, 0x00, 0x28, 0x8a, 0xbd, 0x3e,
  0x89, 0x80, 0x7d, 0x3f, 0x9e, 0x66, 0xff, 0xbc, 0x95, 0xac, 0x9d, 0x3e,
  0x79, 0x42, 0x01, 0xbe, 0x48, 0xe9, 0x17, 0xbf, 0x4e, 0xa6, 0x4a, 0xbe,
  0x50, 0xb7, 0x13, 0xbf, 0x68, 0xfa, 0xff, 0xff, 0x6c, 0xfa, 0xff, 0xff,
  0x0f, 0x00, 0x00, 0x00, 0x4d, 0x4c, 0x49, 0x52, 0x20, 0x43, 0x6f, 0x6e,
  0x76, 0x65, 0x72, 0x74, 0x65, 0x64, 0x2e, 0x00, 0x01, 0x00, 0x00, 0x00,
  0x14, 0x00, 0x00, 0x00, 0x00, 0x00, 0x0e, 0x00, 0x18, 0x00, 0x14, 0x00,
  0x10, 0x00, 0x0c, 0x00, 0x08, 0x00, 0x04, 0x00, 0x0e, 0x00, 0x00, 0x00,
  0x14, 0x00, 0x00, 0x00, 0x1c, 0x00, 0x00, 0x00, 0x34, 0x01, 0x00, 0x00,
  0x38, 0x01, 0x00, 0x00, 0x3c, 0x01, 0x00, 0x00, 0x04, 0x00, 0x00, 0x00,
  0x6d, 0x61, 0x69, 0x6e, 0x00, 0x00, 0x00, 0x00, 0x04, 0x00, 0x00, 0x00,
  0xdc, 0x00, 0x00, 0x00, 0x94, 0x00, 0x00, 0x00, 0x50, 0x00, 0x00, 0x00,
  0x14, 0x00, 0x00, 0x00, 0x00, 0x00, 0x0e, 0x00, 0x1a, 0x00, 0x14, 0x00,
  0x10, 0x00, 0x0c, 0x00, 0x0b, 0x00, 0x04, 0x00, 0x0e, 0x00, 0x00, 0x00,
  0x1c, 0x00, 0x00, 0x00, 0x00, 0x00, 0x00, 0x09, 0x1c, 0x00, 0x00, 0x00,
  0x20, 0x00, 0x00, 0x00, 0x01, 0x00, 0x00, 0x00, 0x00, 0x00, 0x06, 0x00,
  0x08, 0x00, 0x04, 0x00, 0x06, 0x00, 0x00, 0x00, 0x00, 0x00, 0x80, 0x3f,
  0x01, 0x00, 0x00, 0x00, 0x0a, 0x00, 0x00, 0x00, 0x01, 0x00, 0x00, 0x00,
  0x09, 0x00, 0x00, 0x00, 0xce, 0xff, 0xff, 0xff, 0x10, 0x00, 0x00, 0x00,
  0x00, 0x00, 0x00, 0x08, 0x0c, 0x00, 0x00, 0x00, 0x10, 0x00, 0x00, 0x00,
  0x30, 0xfb, 0xff, 0xff, 0x01, 0x00, 0x00, 0x00, 0x09, 0x00, 0x00, 0x00,
  0x03, 0x00, 0x00, 0x00, 0x08, 0x00, 0x00, 0x00, 0x03, 0x00, 0x00, 0x00,
  0x02, 0x00, 0x00, 0x00, 0x00, 0x00, 0x0e, 0x00, 0x14, 0x00, 0x00, 0x00,
  0x10, 0x00, 0x0c, 0x00, 0x0b, 0x00, 0x04, 0x00, 0x0e, 0x00, 0x00, 0x00,
  0x10, 0x00, 0x00, 0x00, 0x00, 0x00, 0x00, 0x08, 0x10, 0x00, 0x00, 0x00,
  0x14, 0x00, 0x00, 0x00, 0xba, 0xff, 0xff, 0xff, 0x00, 0x00, 0x00, 0x01,
  0x01, 0x00, 0x00, 0x00, 0x08, 0x00, 0x00, 0x00, 0x03, 0x00, 0x00, 0x00,
  0x07, 0x00, 0x00, 0x00, 0x04, 0x00, 0x00, 0x00, 0x01, 0x00, 0x00, 0x00,
  0x00, 0x00, 0x0e, 0x00, 0x16, 0x00, 0x00, 0x00, 0x10, 0x00, 0x0c, 0x00,
  0x0b, 0x00, 0x04, 0x00, 0x0e, 0x00, 0x00, 0x00, 0x18, 0x00, 0x00, 0x00,
  0x00, 0x00, 0x00, 0x08, 0x18, 0x00, 0x00, 0x00, 0x1c, 0x00, 0x00, 0x00,
  0x00, 0x00, 0x06, 0x00, 0x08, 0x00, 0x07, 0x00, 0x06, 0x00, 0x00, 0x00,
  0x00, 0x00, 0x00, 0x01, 0x01, 0x00, 0x00, 0x00, 0x07, 0x00, 0x00, 0x00,
  0x03, 0x00, 0x00, 0x00, 0x00, 0x00, 0x00, 0x00, 0x05, 0x00, 0x00, 0x00,
  0x06, 0x00, 0x00, 0x00, 0x01, 0x00, 0x00, 0x00, 0x0a, 0x00, 0x00, 0x00,
  0x01, 0x00, 0x00, 0x00, 0x00, 0x00, 0x00, 0x00, 0x0b, 0x00, 0x00, 0x00,
  0xe8, 0x03, 0x00, 0x00, 0x94, 0x03, 0x00, 0x00, 0x40, 0x03, 0x00, 0x00,
  0x00, 0x03, 0x00, 0x00, 0xc0, 0x02, 0x00, 0x00, 0x74, 0x02, 0x00, 0x00,
  0x10, 0x02, 0x00, 0x00, 0x7c, 0x01, 0x00, 0x00, 0xe0, 0x00, 0x00, 0x00,
  0x60, 0x00, 0x00, 0x00, 0x04, 0x00, 0x00, 0x00, 0x5a, 0xfc, 0xff, 0xff,
  0x00, 0x00, 0x00, 0x01, 0x14, 0x00, 0x00, 0x00, 0x1c, 0x00, 0x00, 0x00,
  0x1c, 0x00, 0x00, 0x00, 0x0b, 0x00, 0x00, 0x00, 0x34, 0x00, 0x00, 0x00,
  0x02, 0x00, 0x00, 0x00, 0xff, 0xff, 0xff, 0xff, 0x03, 0x00, 0x00, 0x00,
  0x44, 0xfc, 0xff, 0xff, 0x1b, 0x00, 0x00, 0x00, 0x53, 0x74, 0x61, 0x74,
  0x65, 0x66, 0x75, 0x6c, 0x50, 0x61, 0x72, 0x74, 0x69, 0x74, 0x69, 0x6f,
  0x6e, 0x65, 0x64, 0x43, 0x61, 0x6c, 0x6c, 0x5f, 0x31, 0x3a, 0x30, 0x00,
  0x02, 0x00, 0x00, 0x00, 0x01, 0x00, 0x00, 0x00, 0x03, 0x00, 0x00, 0x00,
  0xb2, 0xfc, 0xff, 0xff, 0x00, 0x00, 0x00, 0x01, 0x14, 0x00, 0x00, 0x00,
  0x1c, 0x00, 0x00, 0x00, 0x1c, 0x00, 0x00, 0x00, 0x0a, 0x00, 0x00, 0x00,
  0x58, 0x00, 0x00, 0x00, 0x02, 0x00, 0x00, 0x00, 0xff, 0xff, 0xff, 0xff,
  0x03, 0x00, 0x00, 0x00, 0x9c, 0xfc, 0xff, 0xff, 0x3c, 0x00, 0x00, 0x00,
  0x73, 0x65, 0x71, 0x75, 0x65, 0x6e, 0x74, 0x69, 0x61, 0x6c, 0x5f, 0x31,
  0x2f, 0x64, 0x65, 0x6e, 0x73, 0x65, 0x5f, 0x32, 0x5f, 0x31, 0x2f, 0x4d,
  0x61, 0x74, 0x4d, 0x75, 0x6c, 0x3b, 0x73, 0x65, 0x71, 0x75, 0x65, 0x6e,
  0x74, 0x69, 0x61, 0x6c, 0x5f, 0x31, 0x2f, 0x64, 0x65, 0x6e, 0x73, 0x65,
  0x5f, 0x32, 0x5f, 0x31, 0x2f, 0x42, 0x69, 0x61, 0x73, 0x41, 0x64, 0x64,
  0x00, 0x00, 0x00, 0x00, 0x02, 0x00, 0x00, 0x00, 0x01, 0x00, 0x00, 0x00,
  0x03, 0x00, 0x00, 0x00, 0x2e, 0xfd, 0xff, 0xff, 0x00, 0x00, 0x00, 0x01,
  0x14, 0x00, 0x00, 0x00, 0x1c, 0x00, 0x00, 0x00, 0x1c, 0x00, 0x00, 0x00,
  0x09, 0x00, 0x00, 0x00, 0x74, 0x00, 0x00, 0x00, 0x02, 0x00, 0x00, 0x00,
  0xff, 0xff, 0xff, 0xff, 0x08, 0x00, 0x00, 0x00, 0x18, 0xfd, 0xff, 0xff,
  0x58, 0x00, 0x00, 0x00, 0x73, 0x65, 0x71, 0x75, 0x65, 0x6e, 0x74, 0x69,
  0x61, 0x6c, 0x5f, 0x31, 0x2f, 0x64, 0x65, 0x6e, 0x73, 0x65, 0x5f, 0x31,
  0x5f, 0x32, 0x2f, 0x4d, 0x61, 0x74, 0x4d, 0x75, 0x6c, 0x3b, 0x73, 0x65,
  0x71, 0x75, 0x65, 0x6e, 0x74, 0x69, 0x61, 0x6c, 0x5f, 0x31, 0x2f, 0x64,
  0x65, 0x6e, 0x73, 0x65, 0x5f, 0x31, 0x5f, 0x32, 0x2f, 0x52, 0x65, 0x6c,
  0x75, 0x3b, 0x73, 0x65, 0x71, 0x75, 0x65, 0x6e, 0x74, 0x69, 0x61, 0x6c,
  0x5f, 0x31, 0x2f, 0x64, 0x65, 0x6e, 0x73, 0x65, 0x5f, 0x31, 0x5f, 0x32,
  0x2f, 0x42, 0x69, 0x61, 0x73, 0x41, 0x64, 0x64, 0x00, 0x00, 0x00, 0x00,
  0x02, 0x00, 0x00, 0x00, 0x01, 0x00, 0x00, 0x00, 0x08, 0x00, 0x00, 0x00,
  0xc6, 0xfd, 0xff, 0xff, 0x00, 0x00, 0x00, 0x01, 0x14, 0x00, 0x00, 0x00,
  0x1c, 0x00, 0x00, 0x00, 0x1c, 0x00, 0x00, 0x00, 0x08, 0x00, 0x00, 0x00,
  0x6c, 0x00, 0x00, 0x00, 0x02, 0x00, 0x00, 0x00, 0xff, 0xff, 0xff, 0xff,
  0x10, 0x00, 0x00, 0x00, 0xb0, 0xfd, 0xff, 0xff, 0x52, 0x00, 0x00, 0x00,
  0x73, 0x65, 0x71, 0x75, 0x65, 0x6e, 0x74, 0x69, 0x61, 0x6c, 0x5f, 0x31,
  0x2f, 0x64, 0x65, 0x6e, 0x73, 0x65, 0x5f, 0x31, 0x2f, 0x4d, 0x61, 0x74,
  0x4d, 0x75, 0x6c, 0x3b, 0x73, 0x65, 0x71, 0x75, 0x65, 0x6e, 0x74, 0x69,
  0x61, 0x6c, 0x5f, 0x31, 0x2f, 0x64, 0x65, 0x6e, 0x73, 0x65, 0x5f, 0x31,
  0x2f, 0x52, 0x65, 0x6c, 0x75, 0x3b, 0x73, 0x65, 0x71, 0x75, 0x65, 0x6e,
  0x74, 0x69, 0x61, 0x6c, 0x5f, 0x31, 0x2f, 0x64, 0x65, 0x6e, 0x73, 0x65,
  0x5f, 0x31, 0x2f, 0x42, 0x69, 0x61, 0x73, 0x41, 0x64, 0x64, 0x00, 0x00,
  0x02, 0x00, 0x00, 0x00, 0x01, 0x00, 0x00, 0x00, 0x10, 0x00, 0x00, 0x00,
  0xa6, 0xfe, 0xff, 0xff, 0x00, 0x00, 0x00, 0x01, 0x10, 0x00, 0x00, 0x00,
  0x10, 0x00, 0x00, 0x00, 0x07, 0x00, 0x00, 0x00, 0x44, 0x00, 0x00, 0x00,
  0x30, 0xfe, 0xff, 0xff, 0x36, 0x00, 0x00, 0x00, 0x73, 0x65, 0x71, 0x75,
  0x65, 0x6e, 0x74, 0x69, 0x61, 0x6c, 0x5f, 0x31, 0x2f, 0x64, 0x65, 0x6e,
  0x73, 0x65, 0x5f, 0x31, 0x2f, 0x52, 0x65, 0x6c, 0x75, 0x3b, 0x73, 0x65,
  0x71, 0x75, 0x65, 0x6e, 0x74, 0x69, 0x61, 0x6c, 0x5f, 0x31, 0x2f, 0x64,
  0x65, 0x6e, 0x73, 0x65, 0x5f, 0x31, 0x2f, 0x42, 0x69, 0x61, 0x73, 0x41,
  0x64, 0x64, 0x00, 0x00, 0x01, 0x00, 0x00, 0x00, 0x10, 0x00, 0x00, 0x00,
  0x06, 0xff, 0xff, 0xff, 0x00, 0x00, 0x00, 0x01, 0x10, 0x00, 0x00, 0x00,
  0x10, 0x00, 0x00, 0x00, 0x06, 0x00, 0x00, 0x00, 0x28, 0x00, 0x00, 0x00,
  0x90, 0xfe, 0xff, 0xff, 0x1b, 0x00, 0x00, 0x00, 0x73, 0x65, 0x71, 0x75,
  0x65, 0x6e, 0x74, 0x69, 0x61, 0x6c, 0x5f, 0x31, 0x2f, 0x64, 0x65, 0x6e,
  0x73, 0x65, 0x5f, 0x31, 0x2f, 0x4d, 0x61, 0x74, 0x4d, 0x75, 0x6c, 0x00,
  0x02, 0x00, 0x00, 0x00, 0x10, 0x00, 0x00, 0x00, 0x02, 0x00, 0x00, 0x00,
  0x4e, 0xff, 0xff, 0xff, 0x00, 0x00, 0x00, 0x01, 0x10, 0x00, 0x00, 0x00,
  0x10, 0x00, 0x00, 0x00, 0x05, 0x00, 0x00, 0x00, 0x1c, 0x00, 0x00, 0x00,
  0xd8, 0xfe, 0xff, 0xff, 0x0f, 0x00, 0x00, 0x00, 0x61, 0x72, 0x69, 0x74,
  0x68, 0x2e, 0x63, 0x6f, 0x6e, 0x73, 0x74, 0x61, 0x6e, 0x74, 0x33, 0x00,
  0x02, 0x00, 0x00, 0x00, 0x08, 0x00, 0x00, 0x00, 0x10, 0x00, 0x00, 0x00,
  0x8a, 0xff, 0xff, 0xff, 0x00, 0x00, 0x00, 0x01, 0x10, 0x00, 0x00, 0x00,
  0x10, 0x00, 0x00, 0x00, 0x04, 0x00, 0x00, 0x00, 0x1c, 0x00, 0x00, 0x00,
  0x14, 0xff, 0xff, 0xff, 0x0f, 0x00, 0x00, 0x00, 0x61, 0x72, 0x69, 0x74,
  0x68, 0x2e, 0x63, 0x6f, 0x6e, 0x73, 0x74, 0x61, 0x6e, 0x74, 0x32, 0x00,
  0x02, 0x00, 0x00, 0x00, 0x03, 0x00, 0x00, 0x00, 0x08, 0x00, 0x00, 0x00,
  0xc6, 0xff, 0xff, 0xff, 0x00, 0x00, 0x00, 0x01, 0x10, 0x00, 0x00, 0x00,
  0x10, 0x00, 0x00, 0x00, 0x03, 0x00, 0x00, 0x00, 0x1c, 0x00, 0x00, 0x00,
  0x50, 0xff, 0xff, 0xff, 0x0f, 0x00, 0x00, 0x00, 0x61, 0x72, 0x69, 0x74,
  0x68, 0x2e, 0x63, 0x6f, 0x6e, 0x73, 0x74, 0x61, 0x6e, 0x74, 0x31, 0x00,
  0x01, 0x00, 0x00, 0x00, 0x03, 0x00, 0x00, 0x00, 0x00, 0x00, 0x16, 0x00,
  0x18, 0x00, 0x14, 0x00, 0x00, 0x00, 0x10, 0x00, 0x0c, 0x00, 0x08, 0x00,
  0x00, 0x00, 0x00, 0x00, 0x00, 0x00, 0x07, 0x00, 0x16, 0x00, 0x00, 0x00,
  0x00, 0x00, 0x00, 0x01, 0x10, 0x00, 0x00, 0x00, 0x10, 0x00, 0x00, 0x00,
  0x02, 0x00, 0x00, 0x00, 0x1c, 0x00, 0x00, 0x00, 0xa0, 0xff, 0xff, 0xff,
  0x0e, 0x00, 0x00, 0x00, 0x61, 0x72, 0x69, 0x74, 0x68, 0x2e, 0x63, 0x6f,
  0x6e, 0x73, 0x74, 0x61, 0x6e, 0x74, 0x00, 0x00, 0x01, 0x00, 0x00, 0x00,
  0x08, 0x00, 0x00, 0x00, 0x00, 0x00, 0x16, 0x00, 0x1c, 0x00, 0x18, 0x00,
  0x00, 0x00, 0x14, 0x00, 0x10, 0x00, 0x0c, 0x00, 0x00, 0x00, 0x00, 0x00,
  0x08, 0x00, 0x07, 0x00, 0x16, 0x00, 0x00, 0x00, 0x00, 0x00, 0x00, 0x01,
  0x14, 0x00, 0x00, 0x00, 0x20, 0x00, 0x00, 0x00, 0x20, 0x00, 0x00, 0x00,
  0x01, 0x00, 0x00, 0x00, 0x3c, 0x00, 0x00, 0x00, 0x02, 0x00, 0x00, 0x00,
  0xff, 0xff, 0xff, 0xff, 0x02, 0x00, 0x00, 0x00, 0x04, 0x00, 0x04, 0x00,
  0x04, 0x00, 0x00, 0x00, 0x1e, 0x00, 0x00, 0x00, 0x73, 0x65, 0x72, 0x76,
  0x69, 0x6e, 0x67, 0x5f, 0x64, 0x65, 0x66, 0x61, 0x75, 0x6c, 0x74, 0x5f,
  0x6b, 0x65, 0x72, 0x61, 0x73, 0x5f, 0x74, 0x65, 0x6e, 0x73, 0x6f, 0x72,
  0x3a, 0x30, 0x00, 0x00, 0x02, 0x00, 0x00, 0x00, 0x01, 0x00, 0x00, 0x00,
  0x02, 0x00, 0x00, 0x00, 0x02, 0x00, 0x00, 0x00, 0x20, 0x00, 0x00, 0x00,
  0x04, 0x00, 0x00, 0x00, 0xf4, 0xff, 0xff, 0xff, 0x19, 0x00, 0x00, 0x00,
  0x00, 0x00, 0x00, 0x19, 0x0c, 0x00, 0x0c, 0x00, 0x0b, 0x00, 0x00, 0x00,
  0x00, 0x00, 0x04, 0x00, 0x0c, 0x00, 0x00, 0x00, 0x09, 0x00, 0x00, 0x00,
  0x00, 0x00, 0x00, 0x09
};
const unsigned int model_len = 2944;
